unsigned char sine_model_tflite[] = {
  0x1c, 0x00, 0x00, 0x00, 0x54, 0x46, 0x4c, 0x33, 0x14, 0x00, 0x20, 0x00,
  0x1c, 0x00, 0x18, 0x00, 0x14, 0x00, 0x10, 0x00, 0x0c, 0x00, 0x00, 0x00,
  0x08, 0x00, 0x04, 0x00, 0x14, 0x00, 0x00, 0x00, 0x1c, 0x00, 0x00, 0x00,
  0x8c, 0x00, 0x00, 0x00, 0xe4, 0x00, 0x00, 0x00, 0x80, 0x0b, 0x00, 0x00,
  0x90, 0x0b, 0x00, 0x00, 0xe0, 0x12, 0x00, 0x00, 0x03, 0x00, 0x00, 0x00,
  0x01, 0x00, 0x00, 0x00, 0x04, 0x00, 0x00, 0x00, 0x86, 0xf3, 0xff, 0xff,
  0x0c, 0x00, 0x00, 0x00, 0x1c, 0x00, 0x00, 0x00, 0x3c, 0x00, 0x00, 0x00,
  0x0f, 0x00, 0x00, 0x00, 0x73, 0x65, 0x72, 0x76, 0x69, 0x6e, 0x67, 0x5f,
  0x64, 0x65, 0x66, 0x61, 0x75, 0x6c, 0x74, 0x00, 0x01, 0x00, 0x00, 0x00,
  0x04, 0x00, 0x00, 0x00, 0x90, 0xff, 0xff, 0xff, 0x0e, 0x00, 0x00, 0x00,
  0x04, 0x00, 0x00, 0x00, 0x08, 0x00, 0x00, 0x00, 0x6f, 0x75, 0x74, 0x70,
  0x75, 0x74, 0x5f, 0x30, 0x00, 0x00, 0x00, 0x00, 0x01, 0x00, 0x00, 0x00,
  0x04, 0x00, 0x00, 0x00, 0x42, 0xf5, 0xff, 0xff, 0x04, 0x00, 0x00, 0x00,
  0x0e, 0x00, 0x00, 0x00, 0x6b, 0x65, 0x72, 0x61, 0x73, 0x5f, 0x74, 0x65,
  0x6e, 0x73, 0x6f, 0x72, 0x5f, 0x37, 0x00, 0x00, 0x02, 0x00, 0x00, 0x00,
  0x34, 0x00, 0x00, 0x00, 0x04, 0x00, 0x00, 0x00, 0xdc, 0xff, 0xff, 0xff,
  0x11, 0x00, 0x00, 0x00, 0x04, 0x00, 0x00, 0x00, 0x13, 0x00, 0x00, 0x00,
  0x43, 0x4f, 0x4e, 0x56, 0x45, 0x52, 0x53, 0x49, 0x4f, 0x4e, 0x5f, 0x4d,
  0x45, 0x54, 0x41, 0x44, 0x41, 0x54, 0x41, 0x00, 0x08, 0x00, 0x0c, 0x00,
  0x08, 0x00, 0x04, 0x00, 0x08, 0x00, 0x00, 0x00, 0x10, 0x00, 0x00, 0x00,
  0x04, 0x00, 0x00, 0x00, 0x13, 0x00, 0x00, 0x00, 0x6d, 0x69, 0x6e, 0x5f,
  0x72, 0x75, 0x6e, 0x74, 0x69, 0x6d, 0x65, 0x5f, 0x76, 0x65, 0x72, 0x73,
  0x69, 0x6f, 0x6e, 0x00, 0x12, 0x00, 0x00, 0x00, 0x98, 0x0a, 0x00, 0x00,
  0x90, 0x0a, 0x00, 0x00, 0x40, 0x0a, 0x00, 0x00, 0x28, 0x06, 0x00, 0x00,
  0x18, 0x02, 0x00, 0x00, 0x04, 0x02, 0x00, 0x00, 0xb4, 0x01, 0x00, 0x00,
  0x64, 0x01, 0x00, 0x00, 0x14, 0x01, 0x00, 0x00, 0xc4, 0x00, 0x00, 0x00,
  0xbc, 0x00, 0x00, 0x00, 0xb4, 0x00, 0x00, 0x00, 0xac, 0x00, 0x00, 0x00,
  0xa4, 0x00, 0x00, 0x00, 0x9c, 0x00, 0x00, 0x00, 0x94, 0x00, 0x00, 0x00,
  0x74, 0x00, 0x00, 0x00, 0x04, 0x00, 0x00, 0x00, 0x06, 0xf6, 0xff, 0xff,
  0x04, 0x00, 0x00, 0x00, 0x60, 0x00, 0x00, 0x00, 0x0c, 0x00, 0x00, 0x00,
  0x08, 0x00, 0x0e, 0x00, 0x08, 0x00, 0x04, 0x00, 0x08, 0x00, 0x00, 0x00,
  0x10, 0x00, 0x00, 0x00, 0x28, 0x00, 0x00, 0x00, 0x00, 0x00, 0x06, 0x00,
  0x08, 0x00, 0x04, 0x00, 0x06, 0x00, 0x00, 0x00, 0x04, 0x00, 0x00, 0x00,
  0x01, 0x00, 0x00, 0x00, 0xea, 0x03, 0x00, 0x00, 0x0c, 0x00, 0x18, 0x00,
  0x14, 0x00, 0x10, 0x00, 0x0c, 0x00, 0x04, 0x00, 0x0c, 0x00, 0x00, 0x00,
  0x77, 0xfb, 0x8b, 0x36, 0x1b, 0xfd, 0x5a, 0x13, 0x02, 0x00, 0x00, 0x00,
  0x02, 0x00, 0x00, 0x00, 0x04, 0x00, 0x00, 0x00, 0x06, 0x00, 0x00, 0x00,
  0x32, 0x2e, 0x31, 0x38, 0x2e, 0x30, 0x00, 0x00, 0x72, 0xf6, 0xff, 0xff,
  0x04, 0x00, 0x00, 0x00, 0x10, 0x00, 0x00, 0x00, 0x31, 0x2e, 0x31, 0x34,
  0x2e, 0x30, 0x00, 0x00, 0x00, 0x00, 0x00, 0x00, 0x00, 0x00, 0x00, 0x00,
  0x08, 0xef, 0xff, 0xff, 0x0c, 0xef, 0xff, 0xff, 0x10, 0xef, 0xff, 0xff,
  0x14, 0xef, 0xff, 0xff, 0x18, 0xef, 0xff, 0xff, 0x1c, 0xef, 0xff, 0xff,
  0xa6, 0xf6, 0xff, 0xff, 0x04, 0x00, 0x00, 0x00, 0x40, 0x00, 0x00, 0x00,
  0xb8, 0x02, 0x84, 0xbd, 0xa6, 0x6c, 0xdb, 0xbe, 0x56, 0x24, 0xbc, 0xbe,
  0xc0, 0xa3, 0xf1, 0x3e, 0xcb, 0xc2, 0x40, 0x3e, 0x97, 0xd3, 0xa6, 0x3d,
  0x08, 0x78, 0xd5, 0xbe, 0x7a, 0xfe, 0xc6, 0x3e, 0x68, 0x15, 0x11, 0xbf,
  0x3d, 0x0c, 0x0e, 0x3f, 0x68, 0xc5, 0x0d, 0xbf, 0xd9, 0x64, 0x16, 0xbf,
  0xd4, 0xb0, 0x11, 0x3f, 0x33, 0x14, 0x4e, 0x3a, 0x6f, 0x2f, 0x26, 0xbe,
  0x13, 0xd3, 0xed, 0x3e, 0xf2, 0xf6, 0xff, 0xff, 0x04, 0x00, 0x00, 0x00,
  0x40, 0x00, 0x00, 0x00, 0x00, 0x00, 0x00, 0x00, 0x00, 0x00, 0x00, 0x00,
  0x00, 0x00, 0x00, 0x00, 0x8b, 0xeb, 0x1f, 0xbe, 0x43, 0xf7, 0xd1, 0xbe,
  0x85, 0x85, 0x7f, 0xbe, 0x00, 0x00, 0x00, 0x00, 0x06, 0x87, 0xfa, 0xbe,
  0x00, 0x00, 0x00, 0x00, 0x6a, 0xa9, 0xeb, 0xbe, 0x00, 0x00, 0x00, 0x00,
  0x00, 0x00, 0x00, 0x00, 0xa8, 0x0f, 0xfd, 0xbe, 0xab, 0x3c, 0xbd, 0xbb,
  0x7f, 0xa6, 0x7e, 0x3d, 0xed, 0x6f, 0x17, 0xbd, 0x3e, 0xf7, 0xff, 0xff,
  0x04, 0x00, 0x00, 0x00, 0x40, 0x00, 0x00, 0x00, 0xfe, 0xea, 0xfd, 0xbd,
  0xb7, 0xf3, 0x5d, 0x3d, 0xf7, 0xaa, 0x42, 0x3e, 0x82, 0x52, 0xb5, 0xbe,
  0x26, 0x83, 0xad, 0xbc, 0xf0, 0x3d, 0xb1, 0x3e, 0x05, 0xf5, 0x81, 0x3e,
  0xe3, 0x44, 0x0e, 0xbd, 0x32, 0xd7, 0xef, 0xbc, 0x96, 0x3e, 0x6e, 0x3e,
  0x1e, 0x1e, 0x14, 0x3e, 0xa0, 0xc5, 0xe6, 0xbe, 0xb0, 0xb8, 0x8a, 0x3e,
  0x29, 0xe9, 0x04, 0xbe, 0xf3, 0xcf, 0x09, 0x3f, 0x32, 0x40, 0xbf, 0xbe,
  0x8a, 0xf7, 0xff, 0xff, 0x04, 0x00, 0x00, 0x00, 0x40, 0x00, 0x00, 0x00,
  0x70, 0x0a, 0x80, 0x3e, 0x25, 0xa0, 0xb0, 0x3b, 0x2e, 0x50, 0x91, 0x3d,
  0xba, 0xf2, 0xef, 0xbd, 0x1a, 0x4e, 0x90, 0x3e, 0x4d, 0x6f, 0xb4, 0x3d,
  0xc8, 0x59, 0x4d, 0xbe, 0x7b, 0x23, 0x86, 0x3c, 0x7c, 0xc5, 0xd8, 0xbb,
  0x90, 0x2d, 0xb5, 0xbe, 0xe6, 0x28, 0x5c, 0x3e, 0x59, 0x5d, 0x98, 0x3d,
  0x9a, 0x24, 0xec, 0x3d, 0xc6, 0xa7, 0x8b, 0x3e, 0x7b, 0x6f, 0xb9, 0xbe,
  0x1d, 0x0e, 0x25, 0xbe, 0xd6, 0xf7, 0xff, 0xff, 0x04, 0x00, 0x00, 0x00,
  0x04, 0x00, 0x00, 0x00, 0x76, 0x2b, 0x02, 0xbe, 0xe6, 0xf7, 0xff, 0xff,
  0x04, 0x00, 0x00, 0x00, 0x00, 0x04, 0x00, 0x00, 0x60, 0x0c, 0x7d, 0x3c,
  0xcb, 0x65, 0xc7, 0x3e, 0x11, 0x47, 0xb0, 0xbe, 0x46, 0x50, 0xae, 0x3e,
  0xc9, 0x99, 0x72, 0xbe, 0x61, 0xbc, 0xa6, 0x3e, 0x72, 0xd9, 0x04, 0x3e,
  0x35, 0xed, 0x68, 0x3e, 0x86, 0x17, 0x0c, 0x3e, 0x92, 0x89, 0xb9, 0x3e,
  0x87, 0x60, 0x68, 0xbe, 0x0e, 0x1b, 0xc6, 0xbe, 0x45, 0x10, 0x44, 0xbe,
  0x65, 0x80, 0x07, 0x3e, 0xb4, 0xb4, 0x05, 0x3c, 0x6c, 0x7b, 0x6f, 0x3b,
  0x2e, 0x56, 0x45, 0x3e, 0xc9, 0x43, 0xd8, 0x3e, 0x49, 0xf8, 0xcb, 0xbe,
  0x5b, 0xdc, 0x94, 0xbe, 0x3f, 0x8d, 0x93, 0xbe, 0x3b, 0x23, 0x6e, 0x3e,
  0x72, 0x00, 0x38, 0x3e, 0x65, 0x17, 0xbd, 0x3b, 0x33, 0x88, 0xc8, 0xbe,
  0x34, 0x48, 0x51, 0xbe, 0x80, 0xf1, 0xdc, 0xbe, 0x36, 0x8c, 0x2e, 0x3e,
  0x47, 0x06, 0xf7, 0xbe, 0x2b, 0x10, 0xa4, 0xbd, 0x24, 0x20, 0x0e, 0x3e,
  0xec, 0xf3, 0x22, 0x3e, 0x4c, 0x68, 0x82, 0xbd, 0xfe, 0x02, 0x68, 0x3e,
  0xc4, 0xb7, 0xa4, 0x3d, 0xae, 0x8d, 0xd7, 0xbd, 0x9a, 0x5c, 0x7d, 0xbe,
  0x9a, 0x3d, 0x0a, 0x3e, 0xc9, 0x46, 0xbd, 0x3e, 0x8d, 0xba, 0x57, 0x3e,
  0x07, 0x92, 0x83, 0x3e, 0x2c, 0x70, 0xa8, 0xbe, 0xfa, 0x6f, 0x31, 0x3e,
  0x51, 0x2c, 0xda, 0xbe, 0x4e, 0x89, 0x3e, 0xbd, 0x69, 0x7b, 0x61, 0x3e,
  0xae, 0x17, 0x11, 0x3e, 0x1a, 0x0b, 0x9c, 0x3d, 0xcb, 0x36, 0x55, 0xbe,
  0x4a, 0x89, 0x0a, 0x3e, 0x71, 0xca, 0x95, 0xbe, 0xfc, 0xde, 0xf6, 0x3d,
  0xcd, 0xce, 0xfe, 0x3e, 0x5a, 0x36, 0x4e, 0x3e, 0x5c, 0x72, 0x84, 0xbd,
  0x9e, 0x2d, 0xdd, 0x3b, 0x80, 0xb4, 0xd8, 0xbd, 0x1d, 0x40, 0xc1, 0x3e,
  0x2c, 0x5b, 0xfa, 0x3d, 0xda, 0xf9, 0x66, 0x3e, 0x17, 0xcf, 0xa1, 0x3e,
  0xd3, 0x5d, 0xbb, 0x3e, 0x6a, 0x82, 0xbd, 0x3e, 0x9f, 0xd2, 0xad, 0xbe,
  0xfc, 0x5b, 0xee, 0x3d, 0x1a, 0x17, 0xc3, 0xbe, 0xe0, 0x2c, 0x36, 0xbe,
  0x44, 0x7d, 0x83, 0x3e, 0x86, 0xba, 0x04, 0x3e, 0x14, 0x38, 0x46, 0xbe,
  0x10, 0xe6, 0x97, 0x3c, 0xfe, 0x1f, 0x44, 0x3e, 0x92, 0x40, 0x44, 0x3e,
  0xfc, 0x3a, 0xd6, 0xbd, 0xde, 0x8a, 0xa7, 0xbe, 0xa7, 0xb6, 0xa6, 0xbe,
  0x1d, 0xda, 0x45, 0xbe, 0x58, 0xfe, 0x8f, 0xbe, 0x60, 0xfb, 0x90, 0x3e,
  0x0d, 0xc6, 0x94, 0xbd, 0x00, 0xaa, 0x2a, 0xba, 0xa0, 0xc6, 0x37, 0x3d,
  0xd6, 0x13, 0x36, 0x3e, 0xb5, 0x19, 0x20, 0xbd, 0xff, 0x28, 0x05, 0xbe,
  0xa7, 0x0c, 0xac, 0xbe, 0x16, 0x4f, 0x30, 0x3e, 0x34, 0x75, 0x70, 0xbe,
  0x33, 0x60, 0x48, 0xbe, 0xcb, 0xb6, 0x35, 0xbc, 0xca, 0x45, 0xbe, 0xbe,
  0x6f, 0xb1, 0xd9, 0x3e, 0x83, 0x40, 0x32, 0xbe, 0xeb, 0xbe, 0x4e, 0xbe,
  0x2b, 0xcf, 0xb5, 0x3e, 0x8b, 0x0d, 0x9a, 0x3e, 0xe0, 0x57, 0xac, 0xbc,
  0x64, 0x57, 0x8a, 0xbe, 0xbb, 0xcf, 0xa7, 0xbe, 0x93, 0xc7, 0x36, 0xbf,
  0x2e, 0xa4, 0xf8, 0xbe, 0x41, 0x64, 0x97, 0xbe, 0xd6, 0x4d, 0x12, 0x3e,
  0xf5, 0x68, 0x1a, 0xbf, 0x1b, 0xf8, 0x9a, 0x3e, 0x9e, 0x2a, 0x5f, 0xbe,
  0x65, 0xad, 0xc0, 0xbe, 0x0d, 0xba, 0x8d, 0x3e, 0xb9, 0x50, 0x93, 0xbe,
  0xcc, 0xfb, 0xad, 0x3d, 0x9d, 0x4e, 0x28, 0x3e, 0x90, 0x8e, 0x67, 0xbf,
  0x50, 0xd8, 0x79, 0xbd, 0x73, 0xde, 0x82, 0x3e, 0x58, 0x23, 0x88, 0x3d,
  0x53, 0x7f, 0x63, 0x3b, 0x76, 0x55, 0x84, 0xbd, 0xe8, 0x09, 0x3c, 0x3e,
  0xb0, 0x7f, 0x94, 0xbe, 0xd3, 0xdf, 0xaa, 0x3d, 0xac, 0x66, 0xaf, 0xbe,
  0x74, 0xba, 0x29, 0x3d, 0x1c, 0xe3, 0x93, 0xbe, 0xbc, 0xde, 0xb1, 0xbe,
  0xef, 0x2a, 0x8b, 0x3e, 0xaa, 0x19, 0x1c, 0x3e, 0x14, 0x4c, 0x79, 0xbe,
  0x74, 0xfe, 0xba, 0xbe, 0x1a, 0xf5, 0x8a, 0xbe, 0x8c, 0x6b, 0x96, 0xbd,
  0xf0, 0xed, 0x8c, 0xbc, 0x2d, 0x01, 0xa7, 0x3e, 0xb5, 0x6a, 0x43, 0xbd,
  0xa0, 0xa1, 0xa4, 0xbc, 0x8b, 0x14, 0xa4, 0x3e, 0x62, 0xef, 0x42, 0x3e,
  0x70, 0x2f, 0x00, 0xbd, 0xbb, 0x14, 0xd9, 0xbe, 0x9f, 0x20, 0xd6, 0xbe,
  0x66, 0x26, 0x44, 0x3e, 0xe8, 0x3f, 0x32, 0x3d, 0x0c, 0x16, 0xc4, 0xbe,
  0x96, 0x13, 0x40, 0xbe, 0x84, 0x0e, 0x2c, 0xbd, 0x8b, 0xc4, 0x9a, 0x3e,
  0x86, 0x87, 0x8d, 0xbe, 0x20, 0xc8, 0xb7, 0xbd, 0x37, 0x97, 0x81, 0xbd,
  0xf4, 0xaa, 0xaa, 0xbe, 0x4b, 0x41, 0xcd, 0xbe, 0xa0, 0x28, 0xdd, 0xbd,
  0x2e, 0xc1, 0x94, 0xbd, 0x9c, 0x64, 0x17, 0xbe, 0xe2, 0x7b, 0xc2, 0xbe,
  0x32, 0xa8, 0x30, 0x3e, 0x07, 0xec, 0x49, 0xbe, 0xb2, 0x2b, 0xc8, 0xbe,
  0x0a, 0x89, 0xa6, 0x3e, 0xe9, 0x45, 0x7a, 0xbe, 0xb8, 0x89, 0xf5, 0xbe,
  0x74, 0x51, 0xcd, 0x3d, 0x70, 0x3a, 0x63, 0xbe, 0xe0, 0xb9, 0xb4, 0xbc,
  0x7e, 0x5e, 0xf9, 0xbd, 0xb9, 0xf8, 0x67, 0x3e, 0xbb, 0x28, 0x05, 0x3e,
  0x70, 0x59, 0x17, 0xbd, 0x2f, 0x13, 0x42, 0x3e, 0xad, 0x7c, 0x83, 0x3e,
  0xb2, 0x4c, 0xb7, 0x3e, 0x30, 0x04, 0x06, 0xbe, 0xd5, 0x39, 0xb5, 0x3e,
  0x57, 0xbb, 0x5f, 0x3e, 0xf7, 0x2f, 0x58, 0xbe, 0xf4, 0x5c, 0xad, 0x3e,
  0xd3, 0xbd, 0x9c, 0x3e, 0x50, 0xb0, 0x6b, 0x3d, 0x11, 0x02, 0xd1, 0xbe,
  0xfd, 0xb8, 0xdb, 0x3e, 0xde, 0x11, 0x24, 0xbe, 0x4a, 0x96, 0xdf, 0x3e,
  0xf6, 0x46, 0x24, 0x3e, 0x0a, 0xad, 0xb2, 0xbe, 0x1d, 0x79, 0xfc, 0x3e,
  0x1a, 0x6b, 0x1b, 0xbe, 0x17, 0xc7, 0x70, 0xbe, 0x85, 0x5f, 0x94, 0x3e,
  0xd9, 0xc5, 0xa6, 0xbe, 0x6a, 0x7f, 0x98, 0x3e, 0x41, 0xfa, 0x8c, 0x3e,
  0xf1, 0x98, 0xf8, 0x3c, 0x9d, 0x6b, 0xbf, 0x3e, 0x7c, 0xc2, 0xf0, 0x3d,
  0x1a, 0xca, 0xb9, 0xbe, 0x08, 0x96, 0xb8, 0xbd, 0xe3, 0xee, 0xee, 0xbc,
  0xef, 0x53, 0xc2, 0xbc, 0x11, 0x9a, 0x1a, 0x3e, 0x54, 0x07, 0xaf, 0x3d,
  0x58, 0xbc, 0xb0, 0x3e, 0x7c, 0x38, 0x15, 0xbe, 0x63, 0x2d, 0xa2, 0xbd,
  0x0e, 0x04, 0x64, 0x3e, 0xb2, 0x84, 0x63, 0x3e, 0x79, 0xa5, 0x29, 0xbd,
  0x91, 0x1b, 0x82, 0x3e, 0xbd, 0x67, 0x14, 0x3e, 0x47, 0xa9, 0x82, 0xbe,
  0xda, 0x9a, 0x0f, 0x3e, 0xf0, 0xd4, 0x82, 0xbd, 0xa0, 0xfe, 0x4a, 0xbd,
  0xbe, 0x16, 0x3b, 0xbe, 0x4a, 0x69, 0x54, 0xbe, 0x54, 0x8e, 0xc3, 0xbe,
  0xac, 0xe6, 0x04, 0xbe, 0xc6, 0xda, 0x41, 0xbe, 0x30, 0x86, 0xac, 0x3c,
  0x52, 0x2a, 0x2a, 0xbe, 0x84, 0xf0, 0xe6, 0xbd, 0x34, 0x2d, 0xcb, 0x3d,
  0x97, 0x83, 0xa1, 0x3d, 0xca, 0x71, 0x87, 0xbe, 0x12, 0x19, 0x5b, 0x3e,
  0xb3, 0x27, 0xd1, 0xbe, 0x3d, 0x9e, 0x84, 0x3e, 0x8f, 0xaa, 0xbc, 0x3e,
  0x94, 0x4d, 0xe4, 0x3d, 0xbc, 0x40, 0xa0, 0xbd, 0x5b, 0x8e, 0x9b, 0xbe,
  0x6c, 0xd6, 0xb1, 0x3e, 0x4a, 0xd8, 0x4b, 0x3e, 0xd1, 0x07, 0x9b, 0xbe,
  0xd0, 0xbd, 0x07, 0xbe, 0xe7, 0x82, 0x96, 0xbe, 0xb7, 0xe7, 0xa8, 0x3e,
  0xe8, 0xea, 0x5e, 0xbe, 0xef, 0x59, 0x04, 0xbe, 0xa4, 0x31, 0x99, 0xbd,
  0xf0, 0x31, 0xca, 0xbe, 0xb4, 0x51, 0x87, 0xbe, 0x24, 0x4d, 0x15, 0xbe,
  0x8c, 0x56, 0x98, 0xbe, 0x1d, 0x96, 0xdb, 0xbe, 0x39, 0x77, 0xb7, 0x3e,
  0xce, 0x1a, 0x18, 0x3d, 0x0a, 0xa1, 0xb4, 0x3d, 0x59, 0x4a, 0xce, 0x3e,
  0xbf, 0x03, 0x78, 0x3e, 0xd1, 0xa9, 0x7f, 0xbe, 0x1a, 0xb0, 0xfe, 0xbd,
  0x30, 0x0a, 0x79, 0xbd, 0x88, 0x2d, 0xed, 0xbd, 0xf5, 0xf6, 0x7c, 0x3e,
  0xbb, 0x56, 0xd7, 0x3c, 0x10, 0x2f, 0x99, 0xbe, 0x64, 0x3b, 0x7a, 0xbe,
  0xf2, 0xfb, 0xff, 0xff, 0x04, 0x00, 0x00, 0x00, 0x00, 0x04, 0x00, 0x00,
  0xee, 0xe3, 0x28, 0x3e, 0x61, 0x50, 0xc6, 0xbd, 0x0e, 0x29, 0xc8, 0x3d,
  0x2e, 0xcc, 0xe5, 0xbe, 0x9e, 0x06, 0x44, 0xbd, 0xca, 0xa2, 0xb1, 0x3e,
  0xe8, 0x87, 0x13, 0xbf, 0xc2, 0x55, 0xc7, 0xbd, 0xde, 0xc5, 0x8a, 0x3e,
  0x5d, 0x45, 0x28, 0xbf, 0x92, 0x5e, 0xd5, 0x3d, 0x9d, 0x81, 0xcb, 0xbe,
  0xfd, 0x41, 0xb1, 0x3e, 0x8c, 0x94, 0xc4, 0xbe, 0x46, 0x45, 0x54, 0xbd,
  0xda, 0x9b, 0xda, 0xbe, 0x8b, 0xb1, 0x01, 0x3e, 0xaf, 0x95, 0x8d, 0x3d,
  0xd0, 0xa0, 0x2a, 0xbe, 0xec, 0x3d, 0xcb, 0xbe, 0x65, 0xb5, 0x79, 0xbe,
  0xfc, 0x06, 0xce, 0x3e, 0xe8, 0xf7, 0xa4, 0xbe, 0x77, 0xbf, 0xcc, 0x3c,
  0x0f, 0xf6, 0x37, 0xbe, 0x15, 0x1d, 0x11, 0xbf, 0xe9, 0xf1, 0x6a, 0xbe,
  0xd9, 0x25, 0x12, 0x3e, 0xcd, 0x50, 0x37, 0x3e, 0x58, 0x02, 0xf1, 0x3d,
  0x6c, 0xbc, 0x25, 0x3e, 0xca, 0x27, 0x0c, 0xbe, 0x4f, 0x85, 0x27, 0xbd,
  0xaf, 0x34, 0xbc, 0xbe, 0x1e, 0x93, 0x9c, 0xbe, 0x15, 0x6a, 0xd7, 0xbe,
  0xa1, 0x3a, 0x51, 0x3e, 0x59, 0x5e, 0xe1, 0xbd, 0x8f, 0x49, 0x88, 0x3f,
  0x9e, 0xa3, 0x99, 0x3e, 0xea, 0x7d, 0x2e, 0x3e, 0x74, 0x74, 0xa7, 0x3d,
  0x0e, 0xfe, 0x69, 0x3e, 0x35, 0xf8, 0x49, 0xbe, 0x58, 0x1f, 0x20, 0x3d,
  0x6e, 0x7e, 0xd2, 0x3d, 0x26, 0xc8, 0xa6, 0xbe, 0xe2, 0x6f, 0x16, 0x3e,
  0xe5, 0x86, 0x0f, 0x3d, 0x64, 0x75, 0x05, 0xbe, 0xb9, 0x1f, 0x46, 0x3c,
  0x41, 0x24, 0x3b, 0x3e, 0x36, 0xdf, 0xab, 0x3e, 0xe7, 0x12, 0x3d, 0x3d,
  0x69, 0xc9, 0x13, 0xbe, 0x3a, 0x61, 0x79, 0xbe, 0x1d, 0xa4, 0x1f, 0x3c,
  0x1e, 0x3d, 0x84, 0x3e, 0x16, 0xfa, 0x53, 0x3e, 0x44, 0xec, 0x80, 0xbe,
  0x4c, 0x53, 0xab, 0xbd, 0x29, 0x12, 0xca, 0x3d, 0xd4, 0xf8, 0x0b, 0x3e,
  0x21, 0x26, 0x12, 0x3e, 0xbd, 0x58, 0x28, 0x3e, 0xbd, 0x0b, 0xc8, 0xbe,
  0x3e, 0x0b, 0xd9, 0x3e, 0x1a, 0x1e, 0x03, 0x3e, 0x33, 0xe6, 0x7c, 0xbe,
  0xc1, 0x9c, 0xac, 0xbd, 0xb2, 0x13, 0x1a, 0xbf, 0x07, 0xc3, 0xd4, 0x3d,
  0xad, 0xa4, 0xb6, 0xbd, 0x35, 0x3a, 0xe2, 0xbe, 0xf9, 0x91, 0x9a, 0xbe,
  0x94, 0x7c, 0xdf, 0xbe, 0x83, 0xe0, 0xda, 0x3e, 0xcb, 0x6d, 0x4d, 0xbe,
  0xb7, 0x26, 0xd7, 0xbe, 0x55, 0x93, 0x08, 0xbe, 0xb8, 0x30, 0xc8, 0xbe,
  0x31, 0xd7, 0x28, 0xbe, 0x1b, 0x45, 0x8b, 0x3e, 0x7a, 0xea, 0xa4, 0x3e,
  0xac, 0xac, 0x8d, 0x3d, 0x41, 0x4e, 0x1b, 0xbe, 0x54, 0xf9, 0x62, 0x3f,
  0xf7, 0x43, 0xa6, 0xbe, 0x15, 0xdc, 0x15, 0xbe, 0x5e, 0xe1, 0x1b, 0x3e,
  0x1c, 0xa6, 0x8b, 0x3e, 0x62, 0x7b, 0xfe, 0xbe, 0x06, 0x2f, 0x29, 0x3e,
  0x38, 0x2c, 0xbd, 0xbe, 0x47, 0x27, 0x26, 0xbf, 0x56, 0x92, 0xa5, 0x3e,
  0x17, 0x3c, 0xe7, 0x3e, 0xdf, 0xb9, 0x6a, 0x3e, 0x51, 0x27, 0x2e, 0x3e,
  0xa9, 0x60, 0xcd, 0x3e, 0x92, 0x24, 0x80, 0xbd, 0x79, 0x26, 0x4d, 0xbe,
  0xad, 0xb1, 0xad, 0x3e, 0x38, 0xf2, 0x51, 0x3e, 0xcc, 0xb2, 0x63, 0x3d,
  0x18, 0xd9, 0xff, 0x3e, 0xec, 0xa1, 0x9f, 0xbe, 0xc0, 0xa7, 0x33, 0x3e,
  0xf2, 0x6e, 0x3c, 0xbe, 0x3f, 0x85, 0x2b, 0xbe, 0x68, 0xa1, 0x56, 0x3f,
  0xc0, 0x92, 0xbc, 0x3c, 0x71, 0x56, 0x48, 0xbe, 0xe1, 0x30, 0xb6, 0xbd,
  0xeb, 0xeb, 0x8c, 0x3e, 0x1e, 0xdf, 0xaf, 0x3e, 0x65, 0xb1, 0x85, 0x3e,
  0xf6, 0x06, 0x80, 0x3e, 0x62, 0xda, 0xb2, 0x3e, 0x82, 0x74, 0x9b, 0xbe,
  0x8e, 0xf3, 0x17, 0xbd, 0x78, 0x86, 0xde, 0x3a, 0x79, 0x05, 0x51, 0xbe,
  0x26, 0xe9, 0x98, 0x3e, 0xf4, 0x56, 0xc7, 0xbd, 0x5a, 0x98, 0x27, 0xbe,
  0x85, 0x67, 0xfb, 0xbe, 0xa8, 0x12, 0x10, 0xbe, 0xef, 0x50, 0x0e, 0xbf,
  0xb6, 0x19, 0x6f, 0x3e, 0xa0, 0xd1, 0xd0, 0x3e, 0xd5, 0xc1, 0xf9, 0x3d,
  0xfd, 0xfe, 0xbb, 0xbe, 0x06, 0x0c, 0xb2, 0xbd, 0xd7, 0x54, 0xbd, 0xbe,
  0xe5, 0x00, 0x33, 0xbe, 0x85, 0x20, 0xbb, 0xbe, 0x63, 0xd6, 0xd8, 0x3e,
  0x2f, 0xab, 0x6d, 0xbe, 0x0e, 0x8a, 0x7b, 0xbe, 0x77, 0xb4, 0x28, 0xbe,
  0x87, 0x6d, 0x0c, 0x3e, 0x9f, 0xed, 0x88, 0xbd, 0x97, 0x42, 0x90, 0xbe,
  0xcc, 0xfd, 0xc5, 0x3e, 0xe7, 0x13, 0x73, 0x3e, 0x5c, 0x55, 0x94, 0x3c,
  0x87, 0x23, 0xf1, 0x3e, 0xc4, 0xaf, 0x8d, 0x3d, 0xf3, 0xd4, 0x30, 0xbe,
  0xdb, 0xd9, 0x4a, 0xbe, 0xdd, 0xf4, 0x75, 0xbe, 0x03, 0x11, 0x1a, 0x3e,
  0xa7, 0x01, 0xce, 0x3e, 0x33, 0x98, 0x49, 0xbd, 0xb2, 0xc2, 0x1c, 0xbe,
  0xbb, 0xd3, 0x07, 0x3f, 0xe6, 0x89, 0x7e, 0x3e, 0x50, 0xac, 0xa4, 0x3e,
  0xd6, 0x7a, 0xfb, 0xbc, 0x00, 0x3a, 0x1c, 0xbd, 0x53, 0x37, 0x04, 0xbf,
  0xa9, 0x1e, 0xe8, 0x3e, 0x12, 0x72, 0xee, 0xbe, 0xb8, 0x90, 0xd3, 0x3d,
  0xc7, 0x93, 0x23, 0x3e, 0xe2, 0xac, 0x05, 0x3e, 0xed, 0xbb, 0x17, 0xbe,
  0xa2, 0xe1, 0x4c, 0x3d, 0x23, 0x79, 0x89, 0x3e, 0xc1, 0x46, 0x46, 0x3e,
  0xc1, 0x6e, 0xc7, 0xbb, 0x03, 0x9f, 0x2f, 0x3e, 0xef, 0xc4, 0x3f, 0xbe,
  0x55, 0xce, 0x25, 0xbf, 0x61, 0x8f, 0xb5, 0xbe, 0x2e, 0x30, 0x8b, 0x3e,
  0x55, 0x5d, 0x1f, 0xbf, 0x52, 0x29, 0x2c, 0x3e, 0xaa, 0x6c, 0x26, 0x3e,
  0x1b, 0x7d, 0xd2, 0xbe, 0x72, 0x7c, 0x92, 0x3e, 0x52, 0x44, 0x2a, 0x3f,
  0x78, 0x70, 0x5e, 0x3d, 0x8b, 0x58, 0x0d, 0x3e, 0xb6, 0x0f, 0xdc, 0xbe,
  0xc1, 0x59, 0x8e, 0xbc, 0x46, 0x2a, 0x04, 0xbf, 0x14, 0x4d, 0x1d, 0x3e,
  0x57, 0xf1, 0x22, 0xbe, 0xd9, 0xe3, 0xd7, 0xbe, 0xa6, 0x8b, 0x89, 0x3c,
  0x06, 0x1e, 0xe5, 0x3d, 0x52, 0x29, 0x2e, 0xbd, 0xd4, 0x11, 0xc6, 0xbe,
  0xaa, 0x85, 0x82, 0xbe, 0x64, 0x5d, 0x6a, 0xbe, 0xfe, 0xb6, 0x93, 0xbe,
  0x18, 0x25, 0x08, 0x3e, 0x28, 0x74, 0x4f, 0xbe, 0x3e, 0xbe, 0x11, 0xbe,
  0x29, 0xc3, 0x93, 0x3e, 0x06, 0xeb, 0xca, 0x3d, 0x2d, 0x16, 0xc0, 0x3d,
  0x50, 0x60, 0xbd, 0xbb, 0x85, 0xd7, 0xdc, 0xbe, 0xcf, 0xf3, 0x5d, 0xbf,
  0x45, 0xcd, 0x8e, 0x3d, 0x68, 0xe6, 0xa3, 0xbd, 0xae, 0xf4, 0x1e, 0xbf,
  0xed, 0xad, 0xde, 0x3d, 0xb0, 0x3e, 0x99, 0xbe, 0x48, 0x7d, 0xa5, 0x3d,
  0x70, 0xd1, 0xbc, 0x3d, 0xd0, 0x4f, 0x2c, 0xbf, 0x20, 0x80, 0x0e, 0xbe,
  0x2a, 0xc6, 0x24, 0xbe, 0xa9, 0xf9, 0xf4, 0xbe, 0x59, 0x80, 0x60, 0xbd,
  0xd7, 0xdb, 0x03, 0xbf, 0x8b, 0x97, 0x06, 0x3e, 0x8c, 0x8e, 0x80, 0xbe,
  0x2d, 0x7b, 0xaf, 0xbd, 0x99, 0x14, 0x11, 0xbc, 0xdc, 0xe4, 0xaf, 0x3e,
  0xf0, 0xd2, 0x35, 0x3f, 0xd1, 0xe3, 0x10, 0xbe, 0xb2, 0x3c, 0xe7, 0x3e,
  0xaa, 0x14, 0xc5, 0xbd, 0xd9, 0x76, 0x88, 0x3e, 0x1d, 0x8c, 0x72, 0x3f,
  0xef, 0x29, 0x4f, 0xbe, 0x77, 0xa7, 0x43, 0x3e, 0xf4, 0x21, 0x9d, 0x3f,
  0xa9, 0xd2, 0x0d, 0xbe, 0x0f, 0x4a, 0x31, 0x3c, 0x1d, 0x0d, 0x6b, 0xbe,
  0x2b, 0x90, 0xc4, 0x3e, 0xd2, 0x03, 0x9f, 0x3e, 0x23, 0x4d, 0xe2, 0x3e,
  0x3a, 0xe2, 0x0e, 0x3e, 0x8b, 0xac, 0x3f, 0x3f, 0xe8, 0xac, 0x3e, 0x3e,
  0x04, 0xf5, 0x4c, 0xbe, 0x72, 0x0e, 0x80, 0xbc, 0xdc, 0xe5, 0xb0, 0xbe,
  0x07, 0xa9, 0x88, 0xbe, 0x26, 0x54, 0xc8, 0x3d, 0x40, 0x06, 0x6b, 0xbe,
  0x77, 0x57, 0x1f, 0x3f, 0x94, 0x60, 0x8f, 0xbb, 0xd1, 0x70, 0x00, 0x3f,
  0xbe, 0x1e, 0x95, 0x3c, 0xd4, 0x2d, 0x82, 0x3d, 0xff, 0x8e, 0x13, 0x3e,
  0x28, 0x7d, 0x39, 0x3d, 0x00, 0x00, 0x06, 0x00, 0x08, 0x00, 0x04, 0x00,
  0x06, 0x00, 0x00, 0x00, 0x04, 0x00, 0x00, 0x00, 0x40, 0x00, 0x00, 0x00,
  0x5d, 0x4f, 0x7a, 0x3f, 0x70, 0x5b, 0x10, 0xbf, 0xe0, 0x0e, 0x1f, 0xbf,
  0x52, 0x41, 0x9a, 0x3d, 0x71, 0x54, 0x3a, 0x3f, 0xb0, 0x41, 0x91, 0xbe,
  0xef, 0x17, 0x2a, 0x3f, 0xcd, 0xe7, 0x27, 0xbd, 0x75, 0xf2, 0xfb, 0x3e,
  0x82, 0x2e, 0x49, 0x3e, 0xdc, 0x74, 0x56, 0xbf, 0x24, 0x6d, 0xf1, 0xbe,
  0xea, 0xcb, 0xaa, 0xbe, 0x6f, 0xaf, 0x14, 0x3f, 0x6b, 0x68, 0x32, 0x3f,
  0x7e, 0x1b, 0xac, 0x3e, 0xcc, 0xf8, 0xff, 0xff, 0xd0, 0xf8, 0xff, 0xff,
  0x0f, 0x00, 0x00, 0x00, 0x4d, 0x4c, 0x49, 0x52, 0x20, 0x43, 0x6f, 0x6e,
  0x76, 0x65, 0x72, 0x74, 0x65, 0x64, 0x2e, 0x00, 0x01, 0x00, 0x00, 0x00,
  0x14, 0x00, 0x00, 0x00, 0x00, 0x00, 0x0e, 0x00, 0x18, 0x00, 0x14, 0x00,
  0x10, 0x00, 0x0c, 0x00, 0x08, 0x00, 0x04, 0x00, 0x0e, 0x00, 0x00, 0x00,
  0x14, 0x00, 0x00, 0x00, 0x1c, 0x00, 0x00, 0x00, 0x80, 0x01, 0x00, 0x00,
  0x84, 0x01, 0x00, 0x00, 0x88, 0x01, 0x00, 0x00, 0x04, 0x00, 0x00, 0x00,
  0x6d, 0x61, 0x69, 0x6e, 0x00, 0x00, 0x00, 0x00, 0x06, 0x00, 0x00, 0x00,
  0x28, 0x01, 0x00, 0x00, 0xe4, 0x00, 0x00, 0x00, 0xc0, 0x00, 0x00, 0x00,
  0x80, 0x00, 0x00, 0x00, 0x38, 0x00, 0x00, 0x00, 0x04, 0x00, 0x00, 0x00,
  0xfe, 0xfe, 0xff, 0xff, 0x10, 0x00, 0x00, 0x00, 0x00, 0x00, 0x00, 0x08,
  0x0c, 0x00, 0x00, 0x00, 0x10, 0x00, 0x00, 0x00, 0x54, 0xf9, 0xff, 0xff,
  0x01, 0x00, 0x00, 0x00, 0x0e, 0x00, 0x00, 0x00, 0x03, 0x00, 0x00, 0x00,
  0x0d, 0x00, 0x00, 0x00, 0x01, 0x00, 0x00, 0x00, 0x04, 0x00, 0x00, 0x00,
  0x2e, 0xff, 0xff, 0xff, 0x10, 0x00, 0x00, 0x00, 0x00, 0x00, 0x00, 0x08,
  0x10, 0x00, 0x00, 0x00, 0x14, 0x00, 0x00, 0x00, 0x1e, 0xff, 0xff, 0xff,
  0x00, 0x00, 0x00, 0x01, 0x01, 0x00, 0x00, 0x00, 0x0d, 0x00, 0x00, 0x00,
  0x03, 0x00, 0x00, 0x00, 0x0c, 0x00, 0x00, 0x00, 0x02, 0x00, 0x00, 0x00,
  0x05, 0x00, 0x00, 0x00, 0x00, 0x00, 0x0e, 0x00, 0x18, 0x00, 0x14, 0x00,
  0x10, 0x00, 0x0c, 0x00, 0x0b, 0x00, 0x04, 0x00, 0x0e, 0x00, 0x00, 0x00,
  0x14, 0x00, 0x00, 0x00, 0x00, 0x00, 0x00, 0x15, 0x10, 0x00, 0x00, 0x00,
  0x14, 0x00, 0x00, 0x00, 0x02, 0x00, 0x00, 0x00, 0xcc, 0xf9, 0xff, 0xff,
  0x01, 0x00, 0x00, 0x00, 0x0c, 0x00, 0x00, 0x00, 0x02, 0x00, 0x00, 0x00,
  0x0a, 0x00, 0x00, 0x00, 0x0b, 0x00, 0x00, 0x00, 0x00, 0x00, 0x0a, 0x00,
  0x10, 0x00, 0x0c, 0x00, 0x08, 0x00, 0x04, 0x00, 0x0a, 0x00, 0x00, 0x00,
  0x0c, 0x00, 0x00, 0x00, 0x10, 0x00, 0x00, 0x00, 0x01, 0x00, 0x00, 0x00,
  0x01, 0x00, 0x00, 0x00, 0x0b, 0x00, 0x00, 0x00, 0x01, 0x00, 0x00, 0x00,
  0x0a, 0x00, 0x00, 0x00, 0xce, 0xff, 0xff, 0xff, 0x10, 0x00, 0x00, 0x00,
  0x00, 0x00, 0x00, 0x08, 0x0c, 0x00, 0x00, 0x00, 0x10, 0x00, 0x00, 0x00,
  0x24, 0xfa, 0xff, 0xff, 0x01, 0x00, 0x00, 0x00, 0x0a, 0x00, 0x00, 0x00,
  0x03, 0x00, 0x00, 0x00, 0x09, 0x00, 0x00, 0x00, 0x03, 0x00, 0x00, 0x00,
  0x06, 0x00, 0x00, 0x00, 0x00, 0x00, 0x0e, 0x00, 0x16, 0x00, 0x00, 0x00,
  0x10, 0x00, 0x0c, 0x00, 0x0b, 0x00, 0x04, 0x00, 0x0e, 0x00, 0x00, 0x00,
  0x18, 0x00, 0x00, 0x00, 0x00, 0x00, 0x00, 0x08, 0x18, 0x00, 0x00, 0x00,
  0x1c, 0x00, 0x00, 0x00, 0x00, 0x00, 0x06, 0x00, 0x08, 0x00, 0x07, 0x00,
  0x06, 0x00, 0x00, 0x00, 0x00, 0x00, 0x00, 0x01, 0x01, 0x00, 0x00, 0x00,
  0x09, 0x00, 0x00, 0x00, 0x03, 0x00, 0x00, 0x00, 0x00, 0x00, 0x00, 0x00,
  0x08, 0x00, 0x00, 0x00, 0x07, 0x00, 0x00, 0x00, 0x01, 0x00, 0x00, 0x00,
  0x0e, 0x00, 0x00, 0x00, 0x01, 0x00, 0x00, 0x00, 0x00, 0x00, 0x00, 0x00,
  0x0f, 0x00, 0x00, 0x00, 0x38, 0x05, 0x00, 0x00, 0xe0, 0x04, 0x00, 0x00,
  0x88, 0x04, 0x00, 0x00, 0x48, 0x04, 0x00, 0x00, 0x0c, 0x04, 0x00, 0x00,
  0xd0, 0x03, 0x00, 0x00, 0x94, 0x03, 0x00, 0x00, 0x38, 0x03, 0x00, 0x00,
  0xe8, 0x02, 0x00, 0x00, 0x48, 0x02, 0x00, 0x00, 0xc4, 0x01, 0x00, 0x00,
  0x60, 0x01, 0x00, 0x00, 0x00, 0x01, 0x00, 0x00, 0x60, 0x00, 0x00, 0x00,
  0x04, 0x00, 0x00, 0x00, 0x1a, 0xfb, 0xff, 0xff, 0x00, 0x00, 0x00, 0x01,
  0x14, 0x00, 0x00, 0x00, 0x1c, 0x00, 0x00, 0x00, 0x1c, 0x00, 0x00, 0x00,
  0x0f, 0x00, 0x00, 0x00, 0x34, 0x00, 0x00, 0x00, 0x02, 0x00, 0x00, 0x00,
  0xff, 0xff, 0xff, 0xff, 0x01, 0x00, 0x00, 0x00, 0x04, 0xfb, 0xff, 0xff,
  0x1b, 0x00, 0x00, 0x00, 0x53, 0x74, 0x61, 0x74, 0x65, 0x66, 0x75, 0x6c,
  0x50, 0x61, 0x72, 0x74, 0x69, 0x74, 0x69, 0x6f, 0x6e, 0x65, 0x64, 0x43,
  0x61, 0x6c, 0x6c, 0x5f, 0x31, 0x3a, 0x30, 0x00, 0x02, 0x00, 0x00, 0x00,
  0x01, 0x00, 0x00, 0x00, 0x01, 0x00, 0x00, 0x00, 0x72, 0xfb, 0xff, 0xff,
  0x00, 0x00, 0x00, 0x01, 0x14, 0x00, 0x00, 0x00, 0x1c, 0x00, 0x00, 0x00,
  0x1c, 0x00, 0x00, 0x00, 0x0e, 0x00, 0x00, 0x00, 0x78, 0x00, 0x00, 0x00,
  0x02, 0x00, 0x00, 0x00, 0xff, 0xff, 0xff, 0xff, 0x10, 0x00, 0x00, 0x00,
  0x5c, 0xfb, 0xff, 0xff, 0x5e, 0x00, 0x00, 0x00, 0x73, 0x65, 0x71, 0x75,
  0x65, 0x6e, 0x74, 0x69, 0x61, 0x6c, 0x5f, 0x31, 0x5f, 0x31, 0x2f, 0x64,
  0x65, 0x6e, 0x73, 0x65, 0x5f, 0x35, 0x5f, 0x31, 0x2f, 0x4d, 0x61, 0x74,
  0x4d, 0x75, 0x6c, 0x3b, 0x73, 0x65, 0x71, 0x75, 0x65, 0x6e, 0x74, 0x69,
  0x61, 0x6c, 0x5f, 0x31, 0x5f, 0x31, 0x2f, 0x64, 0x65, 0x6e, 0x73, 0x65,
  0x5f, 0x35, 0x5f, 0x31, 0x2f, 0x52, 0x65, 0x6c, 0x75, 0x3b, 0x73, 0x65,
  0x71, 0x75, 0x65, 0x6e, 0x74, 0x69, 0x61, 0x6c, 0x5f, 0x31, 0x5f, 0x31,
  0x2f, 0x64, 0x65, 0x6e, 0x73, 0x65, 0x5f, 0x35, 0x5f, 0x31, 0x2f, 0x42,
  0x69, 0x61, 0x73, 0x41, 0x64, 0x64, 0x00, 0x00, 0x02, 0x00, 0x00, 0x00,
  0x01, 0x00, 0x00, 0x00, 0x10, 0x00, 0x00, 0x00, 0x0e, 0xfc, 0xff, 0xff,
  0x00, 0x00, 0x00, 0x01, 0x14, 0x00, 0x00, 0x00, 0x1c, 0x00, 0x00, 0x00,
  0x1c, 0x00, 0x00, 0x00, 0x0d, 0x00, 0x00, 0x00, 0x38, 0x00, 0x00, 0x00,
  0x02, 0x00, 0x00, 0x00, 0xff, 0xff, 0xff, 0xff, 0x10, 0x00, 0x00, 0x00,
  0xf8, 0xfb, 0xff, 0xff, 0x1e, 0x00, 0x00, 0x00, 0x73, 0x65, 0x71, 0x75,
  0x65, 0x6e, 0x74, 0x69, 0x61, 0x6c, 0x5f, 0x31, 0x5f, 0x31, 0x2f, 0x64,
  0x65, 0x6e, 0x73, 0x65, 0x5f, 0x34, 0x5f, 0x31, 0x2f, 0x6d, 0x75, 0x6c,
  0x5f, 0x31, 0x00, 0x00, 0x02, 0x00, 0x00, 0x00, 0x01, 0x00, 0x00, 0x00,
  0x10, 0x00, 0x00, 0x00, 0x6a, 0xfc, 0xff, 0xff, 0x00, 0x00, 0x00, 0x01,
  0x14, 0x00, 0x00, 0x00, 0x1c, 0x00, 0x00, 0x00, 0x1c, 0x00, 0x00, 0x00,
  0x0c, 0x00, 0x00, 0x00, 0x3c, 0x00, 0x00, 0x00, 0x02, 0x00, 0x00, 0x00,
  0xff, 0xff, 0xff, 0xff, 0x10, 0x00, 0x00, 0x00, 0x54, 0xfc, 0xff, 0xff,
  0x20, 0x00, 0x00, 0x00, 0x73, 0x65, 0x71, 0x75, 0x65, 0x6e, 0x74, 0x69,
  0x61, 0x6c, 0x5f, 0x31, 0x5f, 0x31, 0x2f, 0x64, 0x65, 0x6e, 0x73, 0x65,
  0x5f, 0x34, 0x5f, 0x31, 0x2f, 0x53, 0x69, 0x67, 0x6d, 0x6f, 0x69, 0x64,
  0x00, 0x00, 0x00, 0x00, 0x02, 0x00, 0x00, 0x00, 0x01, 0x00, 0x00, 0x00,
  0x10, 0x00, 0x00, 0x00, 0xca, 0xfc, 0xff, 0xff, 0x00, 0x00, 0x00, 0x01,
  0x14, 0x00, 0x00, 0x00, 0x1c, 0x00, 0x00, 0x00, 0x1c, 0x00, 0x00, 0x00,
  0x0b, 0x00, 0x00, 0x00, 0x5c, 0x00, 0x00, 0x00, 0x02, 0x00, 0x00, 0x00,
  0xff, 0xff, 0xff, 0xff, 0x10, 0x00, 0x00, 0x00, 0xb4, 0xfc, 0xff, 0xff,
  0x40, 0x00, 0x00, 0x00, 0x73, 0x65, 0x71, 0x75, 0x65, 0x6e, 0x74, 0x69,
  0x61, 0x6c, 0x5f, 0x31, 0x5f, 0x31, 0x2f, 0x64, 0x65, 0x6e, 0x73, 0x65,
  0x5f, 0x34, 0x5f, 0x31, 0x2f, 0x4d, 0x61, 0x74, 0x4d, 0x75, 0x6c, 0x3b,
  0x73, 0x65, 0x71, 0x75, 0x65, 0x6e, 0x74, 0x69, 0x61, 0x6c, 0x5f, 0x31,
  0x5f, 0x31, 0x2f, 0x64, 0x65, 0x6e, 0x73, 0x65, 0x5f, 0x34, 0x5f, 0x31,
  0x2f, 0x42, 0x69, 0x61, 0x73, 0x41, 0x64, 0x64, 0x00, 0x00, 0x00, 0x00,
  0x02, 0x00, 0x00, 0x00, 0x01, 0x00, 0x00, 0x00, 0x10, 0x00, 0x00, 0x00,
  0x4a, 0xfd, 0xff, 0xff, 0x00, 0x00, 0x00, 0x01, 0x14, 0x00, 0x00, 0x00,
  0x1c, 0x00, 0x00, 0x00, 0x1c, 0x00, 0x00, 0x00, 0x0a, 0x00, 0x00, 0x00,
  0x78, 0x00, 0x00, 0x00, 0x02, 0x00, 0x00, 0x00, 0xff, 0xff, 0xff, 0xff,
  0x10, 0x00, 0x00, 0x00, 0x34, 0xfd, 0xff, 0xff, 0x5e, 0x00, 0x00, 0x00,
  0x73, 0x65, 0x71, 0x75, 0x65, 0x6e, 0x74, 0x69, 0x61, 0x6c, 0x5f, 0x31,
  0x5f, 0x31, 0x2f, 0x64, 0x65, 0x6e, 0x73, 0x65, 0x5f, 0x33, 0x5f, 0x31,
  0x2f, 0x4d, 0x61, 0x74, 0x4d, 0x75, 0x6c, 0x3b, 0x73, 0x65, 0x71, 0x75,
  0x65, 0x6e, 0x74, 0x69, 0x61, 0x6c, 0x5f, 0x31, 0x5f, 0x31, 0x2f, 0x64,
  0x65, 0x6e, 0x73, 0x65, 0x5f, 0x33, 0x5f, 0x31, 0x2f, 0x52, 0x65, 0x6c,
  0x75, 0x3b, 0x73, 0x65, 0x71, 0x75, 0x65, 0x6e, 0x74, 0x69, 0x61, 0x6c,
  0x5f, 0x31, 0x5f, 0x31, 0x2f, 0x64, 0x65, 0x6e, 0x73, 0x65, 0x5f, 0x33,
  0x5f, 0x31, 0x2f, 0x42, 0x69, 0x61, 0x73, 0x41, 0x64, 0x64, 0x00, 0x00,
  0x02, 0x00, 0x00, 0x00, 0x01, 0x00, 0x00, 0x00, 0x10, 0x00, 0x00, 0x00,
  0x3a, 0xfe, 0xff, 0xff, 0x00, 0x00, 0x00, 0x01, 0x10, 0x00, 0x00, 0x00,
  0x10, 0x00, 0x00, 0x00, 0x09, 0x00, 0x00, 0x00, 0x2c, 0x00, 0x00, 0x00,
  0xc0, 0xfd, 0xff, 0xff, 0x1f, 0x00, 0x00, 0x00, 0x73, 0x65, 0x71, 0x75,
  0x65, 0x6e, 0x74, 0x69, 0x61, 0x6c, 0x5f, 0x31, 0x5f, 0x31, 0x2f, 0x64,
  0x65, 0x6e, 0x73, 0x65, 0x5f, 0x33, 0x5f, 0x31, 0x2f, 0x4d, 0x61, 0x74,
  0x4d, 0x75, 0x6c, 0x00, 0x02, 0x00, 0x00, 0x00, 0x10, 0x00, 0x00, 0x00,
  0x01, 0x00, 0x00, 0x00, 0x86, 0xfe, 0xff, 0xff, 0x00, 0x00, 0x00, 0x01,
  0x10, 0x00, 0x00, 0x00, 0x10, 0x00, 0x00, 0x00, 0x08, 0x00, 0x00, 0x00,
  0x3c, 0x00, 0x00, 0x00, 0x0c, 0xfe, 0xff, 0xff, 0x2f, 0x00, 0x00, 0x00,
  0x73, 0x65, 0x71, 0x75, 0x65, 0x6e, 0x74, 0x69, 0x61, 0x6c, 0x5f, 0x31,
  0x5f, 0x31, 0x2f, 0x64, 0x65, 0x6e, 0x73, 0x65, 0x5f, 0x33, 0x5f, 0x31,
  0x2f, 0x42, 0x69, 0x61, 0x73, 0x41, 0x64, 0x64, 0x2f, 0x52, 0x65, 0x61,
  0x64, 0x56, 0x61, 0x72, 0x69, 0x61, 0x62, 0x6c, 0x65, 0x4f, 0x70, 0x00,
  0x01, 0x00, 0x00, 0x00, 0x10, 0x00, 0x00, 0x00, 0xde, 0xfe, 0xff, 0xff,
  0x00, 0x00, 0x00, 0x01, 0x10, 0x00, 0x00, 0x00, 0x10, 0x00, 0x00, 0x00,
  0x07, 0x00, 0x00, 0x00, 0x1c, 0x00, 0x00, 0x00, 0x64, 0xfe, 0xff, 0xff,
  0x0f, 0x00, 0x00, 0x00, 0x61, 0x72, 0x69, 0x74, 0x68, 0x2e, 0x63, 0x6f,
  0x6e, 0x73, 0x74, 0x61, 0x6e, 0x74, 0x35, 0x00, 0x01, 0x00, 0x00, 0x00,
  0x10, 0x00, 0x00, 0x00, 0x16, 0xff, 0xff, 0xff, 0x00, 0x00, 0x00, 0x01,
  0x10, 0x00, 0x00, 0x00, 0x10, 0x00, 0x00, 0x00, 0x06, 0x00, 0x00, 0x00,
  0x1c, 0x00, 0x00, 0x00, 0x9c, 0xfe, 0xff, 0xff, 0x0f, 0x00, 0x00, 0x00,
  0x61, 0x72, 0x69, 0x74, 0x68, 0x2e, 0x63, 0x6f, 0x6e, 0x73, 0x74, 0x61,
  0x6e, 0x74, 0x34, 0x00, 0x01, 0x00, 0x00, 0x00, 0x10, 0x00, 0x00, 0x00,
  0x4e, 0xff, 0xff, 0xff, 0x00, 0x00, 0x00, 0x01, 0x10, 0x00, 0x00, 0x00,
  0x10, 0x00, 0x00, 0x00, 0x05, 0x00, 0x00, 0x00, 0x1c, 0x00, 0x00, 0x00,
  0xd4, 0xfe, 0xff, 0xff, 0x0f, 0x00, 0x00, 0x00, 0x61, 0x72, 0x69, 0x74,
  0x68, 0x2e, 0x63, 0x6f, 0x6e, 0x73, 0x74, 0x61, 0x6e, 0x74, 0x33, 0x00,
  0x01, 0x00, 0x00, 0x00, 0x01, 0x00, 0x00, 0x00, 0x86, 0xff, 0xff, 0xff,
  0x00, 0x00, 0x00, 0x01, 0x10, 0x00, 0x00, 0x00, 0x10, 0x00, 0x00, 0x00,
  0x04, 0x00, 0x00, 0x00, 0x1c, 0x00, 0x00, 0x00, 0x0c, 0xff, 0xff, 0xff,
  0x0f, 0x00, 0x00, 0x00, 0x61, 0x72, 0x69, 0x74, 0x68, 0x2e, 0x63, 0x6f,
  0x6e, 0x73, 0x74, 0x61, 0x6e, 0x74, 0x32, 0x00, 0x02, 0x00, 0x00, 0x00,
  0x10, 0x00, 0x00, 0x00, 0x10, 0x00, 0x00, 0x00, 0xc2, 0xff, 0xff, 0xff,
  0x00, 0x00, 0x00, 0x01, 0x10, 0x00, 0x00, 0x00, 0x10, 0x00, 0x00, 0x00,
  0x03, 0x00, 0x00, 0x00, 0x1c, 0x00, 0x00, 0x00, 0x48, 0xff, 0xff, 0xff,
  0x0f, 0x00, 0x00, 0x00, 0x61, 0x72, 0x69, 0x74, 0x68, 0x2e, 0x63, 0x6f,
  0x6e, 0x73, 0x74, 0x61, 0x6e, 0x74, 0x31, 0x00, 0x02, 0x00, 0x00, 0x00,
  0x10, 0x00, 0x00, 0x00, 0x10, 0x00, 0x00, 0x00, 0x00, 0x00, 0x16, 0x00,
  0x18, 0x00, 0x14, 0x00, 0x00, 0x00, 0x10, 0x00, 0x0c, 0x00, 0x08, 0x00,
  0x00, 0x00, 0x00, 0x00, 0x00, 0x00, 0x07, 0x00, 0x16, 0x00, 0x00, 0x00,
  0x00, 0x00, 0x00, 0x01, 0x10, 0x00, 0x00, 0x00, 0x10, 0x00, 0x00, 0x00,
  0x02, 0x00, 0x00, 0x00, 0x1c, 0x00, 0x00, 0x00, 0x9c, 0xff, 0xff, 0xff,
  0x0e, 0x00, 0x00, 0x00, 0x61, 0x72, 0x69, 0x74, 0x68, 0x2e, 0x63, 0x6f,
  0x6e, 0x73, 0x74, 0x61, 0x6e, 0x74, 0x00, 0x00, 0x02, 0x00, 0x00, 0x00,
  0x01, 0x00, 0x00, 0x00, 0x10, 0x00, 0x00, 0x00, 0x00, 0x00, 0x16, 0x00,
  0x1c, 0x00, 0x18, 0x00, 0x00, 0x00, 0x14, 0x00, 0x10, 0x00, 0x0c, 0x00,
  0x00, 0x00, 0x00, 0x00, 0x08, 0x00, 0x07, 0x00, 0x16, 0x00, 0x00, 0x00,
  0x00, 0x00, 0x00, 0x01, 0x14, 0x00, 0x00, 0x00, 0x20, 0x00, 0x00, 0x00,
  0x20, 0x00, 0x00, 0x00, 0x01, 0x00, 0x00, 0x00, 0x40, 0x00, 0x00, 0x00,
  0x02, 0x00, 0x00, 0x00, 0xff, 0xff, 0xff, 0xff, 0x01, 0x00, 0x00, 0x00,
  0x04, 0x00, 0x04, 0x00, 0x04, 0x00, 0x00, 0x00, 0x20, 0x00, 0x00, 0x00,
  0x73, 0x65, 0x72, 0x76, 0x69, 0x6e, 0x67, 0x5f, 0x64, 0x65, 0x66, 0x61,
  0x75, 0x6c, 0x74, 0x5f, 0x6b, 0x65, 0x72, 0x61, 0x73, 0x5f, 0x74, 0x65,
  0x6e, 0x73, 0x6f, 0x72, 0x5f, 0x37, 0x3a, 0x30, 0x00, 0x00, 0x00, 0x00,
  0x02, 0x00, 0x00, 0x00, 0x01, 0x00, 0x00, 0x00, 0x01, 0x00, 0x00, 0x00,
  0x03, 0x00, 0x00, 0x00, 0x30, 0x00, 0x00, 0x00, 0x14, 0x00, 0x00, 0x00,
  0x04, 0x00, 0x00, 0x00, 0xe8, 0xff, 0xff, 0xff, 0x12, 0x00, 0x00, 0x00,
  0x00, 0x00, 0x00, 0x12, 0xf4, 0xff, 0xff, 0xff, 0x0e, 0x00, 0x00, 0x00,
  0x00, 0x00, 0x00, 0x0e, 0x0c, 0x00, 0x0c, 0x00, 0x0b, 0x00, 0x00, 0x00,
  0x00, 0x00, 0x04, 0x00, 0x0c, 0x00, 0x00, 0x00, 0x09, 0x00, 0x00, 0x00,
  0x00, 0x00, 0x00, 0x09
};
unsigned int sine_model_tflite_len = 4948;
